{"vocab": {"[UNK]": 0, "a": 1, "abo": 2, "above": 3, "ad": 4, "ain": 5, "ak": 6, "al": 7, "all": 8, "alway": 9, "always": 10, "an": 11, "and": 12, "ang": 13, "ant": 14, "ap": 15, "apple": 16, "ar": 17, "ard": 18, "ark": 19, "ars": 20, "as": 21, "at": 22, "ate": 23, "aut": 24, "autum": 25, "autumn": 26, "ave": 27, "ay": 28, "ayed": 29, "b": 30, "ba": 31, "baby": 32, "bak": 33, "baked": 34, "baker": 35, "be": 36, "bear": 37, "beaut": 38, "beauti": 39, "beautifu": 40, "beautiful": 41, "became": 42, "bee": 43, "bees": 44, "below": 45, "bes": 46, "beside": 47, "bi": 48, "big": 49, "bir": 50, "bird": 51, "bla": 52, "black": 53, "blacksm": 54, "blacksmith": 55, "ble": 56, "bo": 57, "book": 58, "bor": 59, "both": 60, "bought": 61, "boy": 62, "brave": 63, "bread": 64, "bri": 65, "bright": 66, "bro": 67, "brother": 68, "brought": 69, "bu": 70, "but": 71, "butter": 72, "butterf": 73, "by": 74, "c": 75, "ca": 76, "came": 77, "cap": 78, "capital": 79, "car": 80, "carpen": 81, "carpenter": 82, "carried": 83, "cast": 84, "castle": 85, "cat": 86, "caught": 87, "ce": 88, "ch": 89, "cha": 90, "chair": 91, "che": 92, "ched": 93, "chee": 94, "cheese": 95, "child": 96, "childr": 97, "children": 98, "chur": 99, "church": 100, "cit": 101, "city": 102, "ck": 103, "cle": 104, "clear": 105, "clo": 106, "cloth": 107, "cloud": 108, "co": 109, "cold": 110, "cook": 111, "count": 112, "country": 113, "cow": 114, "cro": 115, "crossed": 116, "crown": 117, "cu": 118, "d": 119, "da": 120, "dark": 121, "daught": 122, "daughter": 123, "day": 124, "de": 125, "deer": 126, "def": 127, "defended": 128, "died": 129, "do": 130, "doc": 131, "docto": 132, "doctor": 133, "dog": 134, "dom": 135, "dran": 136, "drank": 137, "e": 138, "ea": 139, "eag": 140, "eagle": 141, "ed": 142, "een": 143, "eld": 144, "en": 145, "end": 146, "ended": 147, "eng": 148, "england": 149, "ent": 150, "ep": 151, "er": 152, "ered": 153, "es": 154, "est": 155, "et": 156, "ets": 157, "eu": 158, "euro": 159, "europe": 160, "even": 161, "evening": 162, "ever": 163, "every": 164, "f": 165, "fa": 166, "famil": 167, "family": 168, "far": 169, "farmer": 170, "fast": 171, "father": 172, "fe": 173, "fel": 174, "fell": 175, "felt": 176, "fi": 177, "field": 178, "fire": 179, "fis": 180, "fish": 181, "fle": 182, "flew": 183, "flow": 184, "flower": 185, "flowers": 186, "flows": 187, "fo": 188, "for": 189, "fore": 190, "forest": 191, "fox": 192, "fran": 193, "france": 194, "fri": 195, "friend": 196, "fro": 197, "from": 198, "fru": 199, "fruit": 200, "fu": 201, "full": 202, "g": 203, "gard": 204, "garden": 205, "gave": 206, "ge": 207, "gh": 208, "ght": 209, "gir": 210, "girl": 211, "go": 212, "gold": 213, "golden": 214, "good": 215, "gr": 216, "gra": 217, "grand": 218, "grass": 219, "gre": 220, "great": 221, "grew": 222, "gu": 223, "guard": 224, "h": 225, "had": 226, "hap": 227, "happ": 228, "happy": 229, "har": 230, "harbor": 231, "harve": 232, "harvest": 233, "he": 234, "heal": 235, "healed": 236, "hel": 237, "help": 238, "helped": 239, "her": 240, "hi": 241, "high": 242, "him": 243, "his": 244, "hissed": 245, "ho": 246, "home": 247, "hone": 248, "honey": 249, "hor": 250, "horse": 251, "hot": 252, "house": 253, "hun": 254, "hunter": 255, "i": 256, "ick": 257, "ide": 258, "ied": 259, "ight": 260, "il": 261, "ild": 262, "illed": 263, "in": 264, "ing": 265, "ins": 266, "into": 267, "ir": 268, "is": 269, "ise": 270, "it": 271, "ital": 272, "italy": 273, "ited": 274, "ith": 275, "k": 276, "ked": 277, "kin": 278, "kind": 279, "king": 280, "kingdom": 281, "knew": 282, "l": 283, "la": 284, "land": 285, "lands": 286, "ld": 287, "le": 288, "lear": 289, "learned": 290, "led": 291, "let": 292, "letter": 293, "li": 294, "lion": 295, "lis": 296, "list": 297, "listen": 298, "listened": 299, "lived": 300, "ll": 301, "llow": 302, "lo": 303, "lon": 304, "lond": 305, "london": 306, "long": 307, "lor": 308, "loved": 309, "low": 310, "ly": 311, "m": 312, "mad": 313, "made": 314, "madrid": 315, "man": 316, "many": 317, "mar": 318, "mark": 319, "married": 320, "me": 321, "mead": 322, "meadow": 323, "meal": 324, "meat": 325, "mer": 326, "merch": 327, "merchant": 328, "merchants": 329, "met": 330, "mil": 331, "milk": 332, "mo": 333, "moon": 334, "morn": 335, "morning": 336, "mother": 337, "mount": 338, "mountain": 339, "mountains": 340, "mouse": 341, "n": 342, "ne": 343, "near": 344, "ned": 345, "new": 346, "ng": 347, "night": 348, "o": 349, "od": 350, "of": 351, "ok": 352, "ol": 353, "old": 354, "on": 355, "one": 356, "open": 357, "or": 358, "orn": 359, "ou": 360, "ought": 361, "oun": 362, "ount": 363, "ous": 364, "ouse": 365, "out": 366, "oven": 367, "over": 368, "ow": 369, "p": 370, "pa": 371, "pal": 372, "pala": 373, "palace": 374, "par": 375, "paris": 376, "park": 377, "passed": 378, "pat": 379, "pati": 380, "patient": 381, "pe": 382, "pen": 383, "peo": 384, "people": 385, "pl": 386, "pla": 387, "play": 388, "played": 389, "ple": 390, "pr": 391, "prayed": 392, "pri": 393, "priest": 394, "prin": 395, "prince": 396, "princess": 397, "q": 398, "qu": 399, "queen": 400, "quick": 401, "r": 402, "ra": 403, "rab": 404, "rabb": 405, "rabbit": 406, "rain": 407, "ran": 408, "rang": 409, "rave": 410, "re": 411, "read": 412, "ready": 413, "red": 414, "reme": 415, "remem": 416, "rememb": 417, "remembered": 418, "ri": 419, "rich": 420, "rid": 421, "ried": 422, "river": 423, "rivers": 424, "rm": 425, "ro": 426, "road": 427, "rome": 428, "rose": 429, "ru": 430, "rule": 431, "ruled": 432, "rules": 433, "ry": 434, "s": 435, "sa": 436, "sad": 437, "sai": 438, "sail": 439, "sailed": 440, "sailor": 441, "sailors": 442, "sang": 443, "sat": 444, "saw": 445, "sch": 446, "scho": 447, "school": 448, "se": 449, "sea": 450, "sed": 451, "set": 452, "sh": 453, "she": 454, "shi": 455, "ship": 456, "sick": 457, "sis": 458, "sister": 459, "sk": 460, "sky": 461, "sle": 462, "slep": 463, "slept": 464, "sm": 465, "small": 466, "smil": 467, "smiled": 468, "sn": 469, "snow": 470, "sold": 471, "soldi": 472, "soldier": 473, "soldiers": 474, "son": 475, "sou": 476, "soup": 477, "sp": 478, "spain": 479, "spr": 480, "spring": 481, "ss": 482, "ssed": 483, "st": 484, "stars": 485, "sted": 486, "sto": 487, "stood": 488, "stori": 489, "stories": 490, "storm": 491, "stre": 492, "streets": 493, "stro": 494, "strong": 495, "sum": 496, "summer": 497, "sun": 498, "sw": 499, "swa": 500, "swam": 501, "swe": 502, "sweet": 503, "swor": 504, "sword": 505, "swords": 506, "t": 507, "ta": 508, "table": 509, "tables": 510, "taught": 511, "te": 512, "tea": 513, "teache": 514, "teacher": 515, "ted": 516, "tem": 517, "temple": 518, "ter": 519, "th": 520, "the": 521, "their": 522, "them": 523, "ther": 524, "they": 525, "thro": 526, "throne": 527, "throu": 528, "through": 529, "tir": 530, "tired": 531, "to": 532, "toge": 533, "together": 534, "told": 535, "town": 536, "tre": 537, "tree": 538, "u": 539, "ud": 540, "ught": 541, "um": 542, "un": 543, "ur": 544, "urned": 545, "ut": 546, "v": 547, "ve": 548, "ved": 549, "ven": 550, "ver": 551, "vil": 552, "villa": 553, "village": 554, "w": 555, "wa": 556, "wal": 557, "walked": 558, "warm": 559, "was": 560, "wat": 561, "watched": 562, "water": 563, "way": 564, "went": 565, "wer": 566, "were": 567, "wh": 568, "whe": 569, "wheat": 570, "when": 571, "whit": 572, "white": 573, "who": 574, "wide": 575, "win": 576, "wind": 577, "windo": 578, "window": 579, "wine": 580, "winter": 581, "wise": 582, "with": 583, "without": 584, "wn": 585, "wo": 586, "wol": 587, "wolf": 588, "woman": 589, "wor": 590, "worked": 591, "wou": 592, "would": 593, "x": 594, "y": 595, "ye": 596, "years": 597, "youn": 598, "young": 599, "z": 600}, "id_to_token": {"0": "[UNK]", "1": "a", "2": "abo", "3": "above", "4": "ad", "5": "ain", "6": "ak", "7": "al", "8": "all", "9": "alway", "10": "always", "11": "an", "12": "and", "13": "ang", "14": "ant", "15": "ap", "16": "apple", "17": "ar", "18": "ard", "19": "ark", "20": "ars", "21": "as", "22": "at", "23": "ate", "24": "aut", "25": "autum", "26": "autumn", "27": "ave", "28": "ay", "29": "ayed", "30": "b", "31": "ba", "32": "baby", "33": "bak", "34": "baked", "35": "baker", "36": "be", "37": "bear", "38": "beaut", "39": "beauti", "40": "beautifu", "41": "beautiful", "42": "became", "43": "bee", "44": "bees", "45": "below", "46": "bes", "47": "beside", "48": "bi", "49": "big", "50": "bir", "51": "bird", "52": "bla", "53": "black", "54": "blacksm", "55": "blacksmith", "56": "ble", "57": "bo", "58": "book", "59": "bor", "60": "both", "61": "bought", "62": "boy", "63": "brave", "64": "bread", "65": "bri", "66": "bright", "67": "bro", "68": "brother", "69": "brought", "70": "bu", "71": "but", "72": "butter", "73": "butterf", "74": "by", "75": "c", "76": "ca", "77": "came", "78": "cap", "79": "capital", "80": "car", "81": "carpen", "82": "carpenter", "83": "carried", "84": "cast", "85": "castle", "86": "cat", "87": "caught", "88": "ce", "89": "ch", "90": "cha", "91": "chair", "92": "che", "93": "ched", "94": "chee", "95": "cheese", "96": "child", "97": "childr", "98": "children", "99": "chur", "100": "church", "101": "cit", "102": "city", "103": "ck", "104": "cle", "105": "clear", "106": "clo", "107": "cloth", "108": "cloud", "109": "co", "110": "cold", "111": "cook", "112": "count", "113": "country", "114": "cow", "115": "cro", "116": "crossed", "117": "crown", "118": "cu", "119": "d", "120": "da", "121": "dark", "122": "daught", "123": "daughter", "124": "day", "125": "de", "126": "deer", "127": "def", "128": "defended", "129": "died", "130": "do", "131": "doc", "132": "docto", "133": "doctor", "134": "dog", "135": "dom", "136": "dran", "137": "drank", "138": "e", "139": "ea", "140": "eag", "141": "eagle", "142": "ed", "143": "een", "144": "eld", "145": "en", "146": "end", "147": "ended", "148": "eng", "149": "england", "150": "ent", "151": "ep", "152": "er", "153": "ered", "154": "es", "155": "est", "156": "et", "157": "ets", "158": "eu", "159": "euro", "160": "europe", "161": "even", "162": "evening", "163": "ever", "164": "every", "165": "f", "166": "fa", "167": "famil", "168": "family", "169": "far", "170": "farmer", "171": "fast", "172": "father", "173": "fe", "174": "fel", "175": "fell", "176": "felt", "177": "fi", "178": "field", "179": "fire", "180": "fis", "181": "fish", "182": "fle", "183": "flew", "184": "flow", "185": "flower", "186": "flowers", "187": "flows", "188": "fo", "189": "for", "190": "fore", "191": "forest", "192": "fox", "193": "fran", "194": "france", "195": "fri", "196": "friend", "197": "fro", "198": "from", "199": "fru", "200": "fruit", "201": "fu", "202": "full", "203": "g", "204": "gard", "205": "garden", "206": "gave", "207": "ge", "208": "gh", "209": "ght", "210": "gir", "211": "girl", "212": "go", "213": "gold", "214": "golden", "215": "good", "216": "gr", "217": "gra", "218": "grand", "219": "grass", "220": "gre", "221": "great", "222": "grew", "223": "gu", "224": "guard", "225": "h", "226": "had", "227": "hap", "228": "happ", "229": "happy", "230": "har", "231": "harbor", "232": "harve", "233": "harvest", "234": "he", "235": "heal", "236": "healed", "237": "hel", "238": "help", "239": "helped", "240": "her", "241": "hi", "242": "high", "243": "him", "244": "his", "245": "hissed", "246": "ho", "247": "home", "248": "hone", "249": "honey", "250": "hor", "251": "horse", "252": "hot", "253": "house", "254": "hun", "255": "hunter", "256": "i", "257": "ick", "258": "ide", "259": "ied", "260": "ight", "261": "il", "262": "ild", "263": "illed", "264": "in", "265": "ing", "266": "ins", "267": "into", "268": "ir", "269": "is", "270": "ise", "271": "it", "272": "ital", "273": "italy", "274": "ited", "275": "ith", "276": "k", "277": "ked", "278": "kin", "279": "kind", "280": "king", "281": "kingdom", "282": "knew", "283": "l", "284": "la", "285": "land", "286": "lands", "287": "ld", "288": "le", "289": "lear", "290": "learned", "291": "led", "292": "let", "293": "letter", "294": "li", "295": "lion", "296": "lis", "297": "list", "298": "listen", "299": "listened", "300": "lived", "301": "ll", "302": "llow", "303": "lo", "304": "lon", "305": "lond", "306": "london", "307": "long", "308": "lor", "309": "loved", "310": "low", "311": "ly", "312": "m", "313": "mad", "314": "made", "315": "madrid", "316": "man", "317": "many", "318": "mar", "319": "mark", "320": "married", "321": "me", "322": "mead", "323": "meadow", "324": "meal", "325": "meat", "326": "mer", "327": "merch", "328": "merchant", "329": "merchants", "330": "met", "331": "mil", "332": "milk", "333": "mo", "334": "moon", "335": "morn", "336": "morning", "337": "mother", "338": "mount", "339": "mountain", "340": "mountains", "341": "mouse", "342": "n", "343": "ne", "344": "near", "345": "ned", "346": "new", "347": "ng", "348": "night", "349": "o", "350": "od", "351": "of", "352": "ok", "353": "ol", "354": "old", "355": "on", "356": "one", "357": "open", "358": "or", "359": "orn", "360": "ou", "361": "ought", "362": "oun", "363": "ount", "364": "ous", "365": "ouse", "366": "out", "367": "oven", "368": "over", "369": "ow", "370": "p", "371": "pa", "372": "pal", "373": "pala", "374": "palace", "375": "par", "376": "paris", "377": "park", "378": "passed", "379": "pat", "380": "pati", "381": "patient", "382": "pe", "383": "pen", "384": "peo", "385": "people", "386": "pl", "387": "pla", "388": "play", "389": "played", "390": "ple", "391": "pr", "392": "prayed", "393": "pri", "394": "priest", "395": "prin", "396": "prince", "397": "princess", "398": "q", "399": "qu", "400": "queen", "401": "quick", "402": "r", "403": "ra", "404": "rab", "405": "rabb", "406": "rabbit", "407": "rain", "408": "ran", "409": "rang", "410": "rave", "411": "re", "412": "read", "413": "ready", "414": "red", "415": "reme", "416": "remem", "417": "rememb", "418": "remembered", "419": "ri", "420": "rich", "421": "rid", "422": "ried", "423": "river", "424": "rivers", "425": "rm", "426": "ro", "427": "road", "428": "rome", "429": "rose", "430": "ru", "431": "rule", "432": "ruled", "433": "rules", "434": "ry", "435": "s", "436": "sa", "437": "sad", "438": "sai", "439": "sail", "440": "sailed", "441": "sailor", "442": "sailors", "443": "sang", "444": "sat", "445": "saw", "446": "sch", "447": "scho", "448": "school", "449": "se", "450": "sea", "451": "sed", "452": "set", "453": "sh", "454": "she", "455": "shi", "456": "ship", "457": "sick", "458": "sis", "459": "sister", "460": "sk", "461": "sky", "462": "sle", "463": "slep", "464": "slept", "465": "sm", "466": "small", "467": "smil", "468": "smiled", "469": "sn", "470": "snow", "471": "sold", "472": "soldi", "473": "soldier", "474": "soldiers", "475": "son", "476": "sou", "477": "soup", "478": "sp", "479": "spain", "480": "spr", "481": "spring", "482": "ss", "483": "ssed", "484": "st", "485": "stars", "486": "sted", "487": "sto", "488": "stood", "489": "stori", "490": "stories", "491": "storm", "492": "stre", "493": "streets", "494": "stro", "495": "strong", "496": "sum", "497": "summer", "498": "sun", "499": "sw", "500": "swa", "501": "swam", "502": "swe", "503": "sweet", "504": "swor", "505": "sword", "506": "swords", "507": "t", "508": "ta", "509": "table", "510": "tables", "511": "taught", "512": "te", "513": "tea", "514": "teache", "515": "teacher", "516": "ted", "517": "tem", "518": "temple", "519": "ter", "520": "th", "521": "the", "522": "their", "523": "them", "524": "ther", "525": "they", "526": "thro", "527": "throne", "528": "throu", "529": "through", "530": "tir", "531": "tired", "532": "to", "533": "toge", "534": "together", "535": "told", "536": "town", "537": "tre", "538": "tree", "539": "u", "540": "ud", "541": "ught", "542": "um", "543": "un", "544": "ur", "545": "urned", "546": "ut", "547": "v", "548": "ve", "549": "ved", "550": "ven", "551": "ver", "552": "vil", "553": "villa", "554": "village", "555": "w", "556": "wa", "557": "wal", "558": "walked", "559": "warm", "560": "was", "561": "wat", "562": "watched", "563": "water", "564": "way", "565": "went", "566": "wer", "567": "were", "568": "wh", "569": "whe", "570": "wheat", "571": "when", "572": "whit", "573": "white", "574": "who", "575": "wide", "576": "win", "577": "wind", "578": "windo", "579": "window", "580": "wine", "581": "winter", "582": "wise", "583": "with", "584": "without", "585": "wn", "586": "wo", "587": "wol", "588": "wolf", "589": "woman", "590": "wor", "591": "worked", "592": "wou", "593": "would", "594": "x", "595": "y", "596": "ye", "597": "years", "598": "youn", "599": "young", "600": "z"}, "loss_history": [3.4273672434120552, 2.705943088012777, 2.6035263484058953, 2.5723652642405384, 2.5410830004940204, 2.5078019764174915, 2.476976262705074, 2.443177403003088, 2.4055717271231876, 2.3742550267179343, 2.3369286626496892, 2.3081685177883333, 2.271759821427815, 2.2333906929085634, 2.205144633285116, 2.175329706924051, 2.147850527860267, 2.1241247807860426, 2.0986599341343894, 2.0774540610054175, 2.048437381682508, 2.036339257456026, 2.0185892699661534, 2.0124882770758434, 1.9902794336364182, 1.9714965534297388, 1.962828506271555, 1.9601960529863591, 1.9458895546239572, 1.9399558676524542, 1.9359434642445217, 1.9290370500273943, 1.9167747684293106, 1.9236620772203599, 1.9129597954993913, 1.911889061457173, 1.9123758273862255, 1.9107034091930637, 1.9029428851150056, 1.9088824273435254, 1.9130043808643031, 1.9067781381383717, 1.9016553429978194, 1.9022201497877764, 1.9016928801755166, 1.8900601193567443, 1.898326267887214, 1.9070897736529597, 1.8920309306281498, 1.8934966390555303]}